{
  "version": "1.0",
  "truncation": null,
  "padding": null,
  "added_tokens": [
    {
      "id": 0,
      "content": "<PAD>",
      "single_word": false,
      "lstrip": false,
      "rstrip": false,
      "normalized": false,
      "special": true
    },
    {
      "id": 1,
      "content": "<UNK>",
      "single_word": false,
      "lstrip": false,
      "rstrip": false,
      "normalized": false,
      "special": true
    },
    {
      "id": 2,
      "content": "<BOS>",
      "single_word": false,
      "lstrip": false,
      "rstrip": false,
      "normalized": false,
      "special": true
    },
    {
      "id": 3,
      "content": "<EOS>",
      "single_word": false,
      "lstrip": false,
      "rstrip": false,
      "normalized": false,
      "special": true
    },
    {
      "id": 4,
      "content": "<SYS>",
      "single_word": false,
      "lstrip": false,
      "rstrip": false,
      "normalized": false,
      "special": true
    },
    {
      "id": 5,
      "content": "<USR>",
      "single_word": false,
      "lstrip": false,
      "rstrip": false,
      "normalized": false,
      "special": true
    },
    {
      "id": 6,
      "content": "<AST>",
      "single_word": false,
      "lstrip": false,
      "rstrip": false,
      "normalized": false,
      "special": true
    },
    {
      "id": 7,
      "content": "<MEM>",
      "single_word": false,
      "lstrip": false,
      "rstrip": false,
      "normalized": false,
      "special": true
    }
  ],
  "normalizer": null,
  "pre_tokenizer": {
    "type": "ByteLevel",
    "add_prefix_space": false,
    "trim_offsets": true,
    "use_regex": true
  },
  "post_processor": null,
  "decoder": {
    "type": "ByteLevel",
    "add_prefix_space": true,
    "trim_offsets": true,
    "use_regex": true
  },
  "model": {
    "type": "BPE",
    "dropout": null,
    "unk_token": null,
    "continuing_subword_prefix": null,
    "end_of_word_suffix": null,
    "fuse_unk": false,
    "byte_fallback": false,
    "ignore_merges": false,
    "vocab": {
      "<PAD>": 0,
      "<UNK>": 1,
      "<BOS>": 2,
      "<EOS>": 3,
      "<SYS>": 4,
      "<USR>": 5,
      "<AST>": 6,
      "<MEM>": 7,
      "!": 8,
      "\"": 9,
      "#": 10,
      "$": 11,
      "%": 12,
      "&": 13,
      "'": 14,
      "(": 15,
      ")": 16,
      "*": 17,
      "+": 18,
      ",": 19,
      "-": 20,
      ".": 21,
      "/": 22,
      "0": 23,
      "1": 24,
      "2": 25,
      "3": 26,
      "4": 27,
      "5": 28,
      "6": 29,
      "7": 30,
      "8": 31,
      "9": 32,
      ":": 33,
      ";": 34,
      "<": 35,
      "=": 36,
      ">": 37,
      "?": 38,
      "@": 39,
      "A": 40,
      "B": 41,
      "C": 42,
      "D": 43,
      "E": 44,
      "F": 45,
      "G": 46,
      "H": 47,
      "I": 48,
      "J": 49,
      "K": 50,
      "L": 51,
      "M": 52,
      "N": 53,
      "O": 54,
      "P": 55,
      "Q": 56,
      "R": 57,
      "S": 58,
      "T": 59,
      "U": 60,
      "V": 61,
      "W": 62,
      "X": 63,
      "Y": 64,
      "Z": 65,
      "[": 66,
      "\\": 67,
      "]": 68,
      "^": 69,
      "_": 70,
      "`": 71,
      "a": 72,
      "b": 73,
      "c": 74,
      "d": 75,
      "e": 76,
      "f": 77,
      "g": 78,
      "h": 79,
      "i": 80,
      "j": 81,
      "k": 82,
      "l": 83,
      "m": 84,
      "n": 85,
      "o": 86,
      "p": 87,
      "q": 88,
      "r": 89,
      "s": 90,
      "t": 91,
      "u": 92,
      "v": 93,
      "w": 94,
      "x": 95,
      "y": 96,
      "z": 97,
      "{": 98,
      "|": 99,
      "}": 100,
      "~": 101,
      "¡": 102,
      "¢": 103,
      "£": 104,
      "¤": 105,
      "¥": 106,
      "¦": 107,
      "§": 108,
      "¨": 109,
      "©": 110,
      "ª": 111,
      "«": 112,
      "¬": 113,
      "®": 114,
      "¯": 115,
      "°": 116,
      "±": 117,
      "²": 118,
      "³": 119,
      "´": 120,
      "µ": 121,
      "¶": 122,
      "·": 123,
      "¸": 124,
      "¹": 125,
      "º": 126,
      "»": 127,
      "¼": 128,
      "½": 129,
      "¾": 130,
      "¿": 131,
      "À": 132,
      "Á": 133,
      "Â": 134,
      "Ã": 135,
      "Ä": 136,
      "Å": 137,
      "Æ": 138,
      "Ç": 139,
      "È": 140,
      "É": 141,
      "Ê": 142,
      "Ë": 143,
      "Ì": 144,
      "Í": 145,
      "Î": 146,
      "Ï": 147,
      "Ð": 148,
      "Ñ": 149,
      "Ò": 150,
      "Ó": 151,
      "Ô": 152,
      "Õ": 153,
      "Ö": 154,
      "×": 155,
      "Ø": 156,
      "Ù": 157,
      "Ú": 158,
      "Û": 159,
      "Ü": 160,
      "Ý": 161,
      "Þ": 162,
      "ß": 163,
      "à": 164,
      "á": 165,
      "â": 166,
      "ã": 167,
      "ä": 168,
      "å": 169,
      "æ": 170,
      "ç": 171,
      "è": 172,
      "é": 173,
      "ê": 174,
      "ë": 175,
      "ì": 176,
      "í": 177,
      "î": 178,
      "ï": 179,
      "ð": 180,
      "ñ": 181,
      "ò": 182,
      "ó": 183,
      "ô": 184,
      "õ": 185,
      "ö": 186,
      "÷": 187,
      "ø": 188,
      "ù": 189,
      "ú": 190,
      "û": 191,
      "ü": 192,
      "ý": 193,
      "þ": 194,
      "ÿ": 195,
      "Ā": 196,
      "ā": 197,
      "Ă": 198,
      "ă": 199,
      "Ą": 200,
      "ą": 201,
      "Ć": 202,
      "ć": 203,
      "Ĉ": 204,
      "ĉ": 205,
      "Ċ": 206,
      "ċ": 207,
      "Č": 208,
      "č": 209,
      "Ď": 210,
      "ď": 211,
      "Đ": 212,
      "đ": 213,
      "Ē": 214,
      "ē": 215,
      "Ĕ": 216,
      "ĕ": 217,
      "Ė": 218,
      "ė": 219,
      "Ę": 220,
      "ę": 221,
      "Ě": 222,
      "ě": 223,
      "Ĝ": 224,
      "ĝ": 225,
      "Ğ": 226,
      "ğ": 227,
      "Ġ": 228,
      "ġ": 229,
      "Ģ": 230,
      "ģ": 231,
      "Ĥ": 232,
      "ĥ": 233,
      "Ħ": 234,
      "ħ": 235,
      "Ĩ": 236,
      "ĩ": 237,
      "Ī": 238,
      "ī": 239,
      "Ĭ": 240,
      "ĭ": 241,
      "Į": 242,
      "į": 243,
      "İ": 244,
      "ı": 245,
      "Ĳ": 246,
      "ĳ": 247,
      "Ĵ": 248,
      "ĵ": 249,
      "Ķ": 250,
      "ķ": 251,
      "ĸ": 252,
      "Ĺ": 253,
      "ĺ": 254,
      "Ļ": 255,
      "ļ": 256,
      "Ľ": 257,
      "ľ": 258,
      "Ŀ": 259,
      "ŀ": 260,
      "Ł": 261,
      "ł": 262,
      "Ń": 263,
      "en": 264,
      "on": 265,
      "de": 266,
      "la": 267,
      "Ġc": 268,
      "ar": 269,
      "ci": 270,
      "es": 271,
      "Ġp": 272,
      "er": 273,
      "Ã¡": 274,
      "ÃŃ": 275,
      "Ġde": 276,
      "ien": 277,
      "lo": 278,
      "ue": 279,
      "Ġs": 280,
      "Ġy": 281,
      "Ġla": 282,
      "an": 283,
      "ic": 284,
      "os": 285,
      "re": 286,
      "ta": 287,
      "te": 288,
      "Ġ=": 289,
      "Ġb": 290,
      "Ġf": 291,
      "Ġcon": 292,
      "cia": 293,
      "ÃŃa": 294,
      "La": 295,
      "di": 296,
      "do": 297,
      "il": 298,
      "mo": 299,
      "no": 300,
      "or": 301,
      "ra": 302,
      "Ã±": 303,
      "Ã³": 304,
      "Ġ+": 305,
      "Ġ1": 306,
      "Ġ3": 307,
      "ĠR": 308,
      "Ġe": 309,
      "Ġl": 310,
      "ĠÃ": 311,
      "Ġes": 312,
      "ica": 313,
      "Ġfu": 314,
      ")^": 315,
      "El": 316,
      "am": 317,
      "go": 318,
      "gÃŃa": 319,
      "ig": 320,
      "in": 321,
      "is": 322,
      "nÃ": 323,
      "om": 324,
      "que": 325,
      "ro": 326,
      "ros": 327,
      "so": 328,
      "to": 329,
      "tar": 330,
      "tica": 331,
      "um": 332,
      "uÃ¡": 333,
      "Â¿": 334,
      "Ġ2": 335,
      "Ġ4": 336,
      "ĠC": 337,
      "ĠP": 338,
      "Ġa": 339,
      "Ġh": 340,
      "Ġt": 341,
      "Ġu": 342,
      "Ġen": 343,
      "Ġre": 344,
      "ĠLa": 345,
      "Ġdi": 346,
      "encia": 347,
      "arÃ¡": 348,
      "Ġpor": 349,
      "logÃŃa": 350,
      "Ã±a": 351,
      "Ġ35": 352,
      "ĠRo": 353,
      "\",": 354,
      "):": 355,
      "00": 356,
      "Ba": 357,
      "CÃ³": 358,
      "CuÃ¡": 359,
      "Fi": 360,
      "Fr": 361,
      "Fra": 362,
      "Ho": 363,
      "InÃ": 364,
      "Ka": 365,
      "Ma": 366,
      "Me": 367,
      "Ps": 368,
      "San": 369,
      "at": 370,
      "ado": 371,
      "bo": 372,
      "ber": 373,
      "con": 374,
      "car": 375,
      "cno": 376,
      "cÃ³": 377,
      "da": 378,
      "dr": 379,
      "dÃ": 380,
      "due": 381,
      "dam": 382,
      "et": 383,
      "eÃ±a": 384,
      "fi": 385,
      "fer": 386,
      "fÃŃa": 387,
      "gue": 388,
      "hon": 389,
      "ia": 390,
      "io": 391,
      "ido": 392,
      "iros": 393,
      "iber": 394,
      "ida": 395,
      "ifi": 396,
      "jo": 397,
      "lu": 398,
      "lv": 399,
      "les": 400,
      "lig": 401,
      "mp": 402,
      "mon": 403,
      "mer": 404,
      "mÃ¡": 405,
      "mien": 406,
      "met": 407,
      "nu": 408,
      "ntica": 409,
      "ndam": 410,
      "ode": 411,
      "oci": 412,
      "ologÃŃa": 413,
      "olu": 414,
      "pia": 415,
      "rn": 416,
      "rs": 417,
      "res": 418,
      "rido": 419,
      "se": 420,
      "sica": 421,
      "sis": 422,
      "scar": 423,
      "tu": 424,
      "tÃ¡": 425,
      "tre": 426,
      "tra": 427,
      "thon": 428,
      "tifi": 429,
      "ula": 430,
      "vida": 431,
      "volu": 432,
      "xis": 433,
      "ython": 434,
      "©s": 435,
      "ºmer": 436,
      "¼eÃ±a": 437,
      "Ãģ": 438,
      "Ã¼eÃ±a": 439,
      "Ġ\"": 440,
      "Ġ#": 441,
      "Ġ/": 442,
      "Ġ9": 443,
      "Ġar": 444,
      "Ġlo": 445,
      "Ġte": 446,
      "Ġmo": 447,
      "Ġno": 448,
      "Ġra": 449,
      "Ġin": 450,
      "ĠnÃ": 451,
      "ĠÂ¿": 452,
      "ĠBa": 453,
      "ĠFr": 454,
      "ĠInÃ": 455,
      "ĠKa": 456,
      "ĠMe": 457,
      "ĠSan": 458,
      "Ġdue": 459,
      "Ġmon": 460,
      "Ġnu": 461,
      "Ġres": 462,
      "Ġvida": 463,
      "ĳan": 464,
      "ĵscar": 465,
      "ļrs": 466,
      "enta": 467,
      "entar": 468,
      "onarÃ¡": 469,
      "delo": 470,
      "las": 471,
      "lamo": 472,
      "Ġcos": 473,
      "Ġcre": 474,
      "Ġcor": 475,
      "Ġcom": 476,
      "ĠcuÃ¡": 477,
      "ara": 478,
      "aro": 479,
      "cis": 480,
      "cionarÃ¡": 481,
      "estar": 482,
      "estra": 483,
      "Ġper": 484,
      "Ġpro": 485,
      "ĠparÃ¡": 486,
      "Ġpode": 487,
      "Ġpara": 488,
      "eron": 489,
      "ÃŃgue": 490,
      "ÃŃsica": 491,
      "Ġdef": 492,
      "iene": 493,
      "iencia": 494,
      "ienso": 495,
      "ienestar": 496,
      "loso": 497,
      "uego": 498,
      "Ġse": 499,
      "Ġson": 500,
      "Ġser": 501,
      "Ġsin": 502,
      "Ġsum": 503,
      "ano": 504,
      "ancis": 505,
      "icologÃŃa": 506,
      "tad": 507,
      "tado": 508,
      "taÃ±a": 509,
      "telig": 510,
      "temÃ¡": 511,
      "Ġbrido": 512,
      "Ġbienestar": 513,
      "ĠfÃŃsica": 514,
      "Ġconoci": 515,
      "Ġconsis": 516,
      "cial": 517,
      "digo": 518,
      "ilde": 519,
      "illas": 520,
      "iliencia": 521,
      "Ã±os": 522,
      "Ã³n": 523,
      "Ġ15": 524,
      "Ġ100": 525,
      "ĠRam": 526,
      "Ġel": 527,
      "Ġemp": 528,
      "Ġexis": 529,
      "Ġliber": 530,
      "Ġllamo": 531,
      "Ġluego": 532,
      "ĠÃĳan": 533,
      "ĠÃĵscar": 534,
      "ĠÃļrs": 535,
      "ĠestÃ¡": 536,
      "Ġfui": 537,
      "Ġfundam": 538,
      "Ġfueron": 539,
      "igÃ¼eÃ±a": 540,
      "omentar": 541,
      "ticas": 542,
      "umano": 543,
      "Ġ25": 544,
      "Ġ27": 545,
      "Ġ42": 546,
      "ĠCigÃ¼eÃ±a": 547,
      "ĠComentar": 548,
      "ĠPython": 549,
      "ĠPienso": 550,
      "Ġha": 551,
      "Ġhumano": 552,
      "Ġtiene": 553,
      "Ġtilde": 554,
      "Ġun": 555,
      "Ġuno": 556,
      "Ġentre": 557,
      "Ġretu": 558,
      "Ġrevolu": 559,
      "Ġdifer": 560,
      "Ġdijo": 561,
      "Ġporque": 562,
      "Ġ350": 563,
      "ĠRoque": 564,
      "ĠRodr": 565,
      "CÃ³digo": 566,
      "CuÃ¡l": 567,
      "Filoso": 568,
      "Frase": 569,
      "Hola": 570,
      "MatemÃ¡": 571,
      "PsicologÃŃa": 572,
      "atÃŃa": 573,
      "cnologÃŃa": 574,
      "cÃ³mo": 575,
      "dÃº": 576,
      "lvaro": 577,
      "miento": 578,
      "metros": 579,
      "tificial": 580,
      "ºmero": 581,
      "Ãģlvaro": 582,
      "Ġartificial": 583,
      "ĠtecnologÃŃa": 584,
      "Ġmodelo": 585,
      "Ġrabo": 586,
      "Ġintelig": 587,
      "ĠnÃºmero": 588,
      "ĠBacon": 589,
      "ĠFrancis": 590,
      "ĠInÃ©s": 591,
      "ĠKairos": 592,
      "ĠdueÃ±os": 593,
      "ĠmontaÃ±a": 594,
      "Ġnuestra": 595,
      "Ġresiliencia": 596,
      "entales": 597,
      "Ġcreado": 598,
      "Ġcortado": 599,
      "Ġcomillas": 600,
      "ĠcuÃ¡ntica": 601,
      "cionarÃ¡n": 602,
      "Ġperro": 603,
      "Ġpropia": 604,
      "ĠparÃ¡metros": 605,
      "Ġpoder": 606,
      "ÃŃguez": 607,
      "Ġsuma": 608,
      "Ġconocimiento": 609,
      "Ġconsiste": 610,
      "ĠRamÃ³n": 611,
      "ĠempatÃŃa": 612,
      "Ġexisto": 613,
      "Ġlibertad": 614,
      "ĠÃĳandÃº": 615,
      "ĠÃļrsula": 616,
      "ĠestÃ¡s": 617,
      "Ġfundamentales": 618,
      "ĠComentario": 619,
      "Ġreturn": 620,
      "ĠrevolucionarÃ¡n": 621,
      "Ġdiferencia": 622,
      "ĠRodrÃŃguez": 623,
      "FilosofÃŃa": 624,
      "MatemÃ¡ticas": 625,
      "Ġinteligencia": 626
    },
    "merges": [
      [
        "e",
        "n"
      ],
      [
        "o",
        "n"
      ],
      [
        "d",
        "e"
      ],
      [
        "l",
        "a"
      ],
      [
        "Ġ",
        "c"
      ],
      [
        "a",
        "r"
      ],
      [
        "c",
        "i"
      ],
      [
        "e",
        "s"
      ],
      [
        "Ġ",
        "p"
      ],
      [
        "e",
        "r"
      ],
      [
        "Ã",
        "¡"
      ],
      [
        "Ã",
        "Ń"
      ],
      [
        "Ġ",
        "de"
      ],
      [
        "i",
        "en"
      ],
      [
        "l",
        "o"
      ],
      [
        "u",
        "e"
      ],
      [
        "Ġ",
        "s"
      ],
      [
        "Ġ",
        "y"
      ],
      [
        "Ġ",
        "la"
      ],
      [
        "a",
        "n"
      ],
      [
        "i",
        "c"
      ],
      [
        "o",
        "s"
      ],
      [
        "r",
        "e"
      ],
      [
        "t",
        "a"
      ],
      [
        "t",
        "e"
      ],
      [
        "Ġ",
        "="
      ],
      [
        "Ġ",
        "b"
      ],
      [
        "Ġ",
        "f"
      ],
      [
        "Ġc",
        "on"
      ],
      [
        "ci",
        "a"
      ],
      [
        "ÃŃ",
        "a"
      ],
      [
        "L",
        "a"
      ],
      [
        "d",
        "i"
      ],
      [
        "d",
        "o"
      ],
      [
        "i",
        "l"
      ],
      [
        "m",
        "o"
      ],
      [
        "n",
        "o"
      ],
      [
        "o",
        "r"
      ],
      [
        "r",
        "a"
      ],
      [
        "Ã",
        "±"
      ],
      [
        "Ã",
        "³"
      ],
      [
        "Ġ",
        "+"
      ],
      [
        "Ġ",
        "1"
      ],
      [
        "Ġ",
        "3"
      ],
      [
        "Ġ",
        "R"
      ],
      [
        "Ġ",
        "e"
      ],
      [
        "Ġ",
        "l"
      ],
      [
        "Ġ",
        "Ã"
      ],
      [
        "Ġ",
        "es"
      ],
      [
        "ic",
        "a"
      ],
      [
        "Ġf",
        "u"
      ],
      [
        ")",
        "^"
      ],
      [
        "E",
        "l"
      ],
      [
        "a",
        "m"
      ],
      [
        "g",
        "o"
      ],
      [
        "g",
        "ÃŃa"
      ],
      [
        "i",
        "g"
      ],
      [
        "i",
        "n"
      ],
      [
        "i",
        "s"
      ],
      [
        "n",
        "Ã"
      ],
      [
        "o",
        "m"
      ],
      [
        "q",
        "ue"
      ],
      [
        "r",
        "o"
      ],
      [
        "r",
        "os"
      ],
      [
        "s",
        "o"
      ],
      [
        "t",
        "o"
      ],
      [
        "t",
        "ar"
      ],
      [
        "t",
        "ica"
      ],
      [
        "u",
        "m"
      ],
      [
        "u",
        "Ã¡"
      ],
      [
        "Â",
        "¿"
      ],
      [
        "Ġ",
        "2"
      ],
      [
        "Ġ",
        "4"
      ],
      [
        "Ġ",
        "C"
      ],
      [
        "Ġ",
        "P"
      ],
      [
        "Ġ",
        "a"
      ],
      [
        "Ġ",
        "h"
      ],
      [
        "Ġ",
        "t"
      ],
      [
        "Ġ",
        "u"
      ],
      [
        "Ġ",
        "en"
      ],
      [
        "Ġ",
        "re"
      ],
      [
        "Ġ",
        "La"
      ],
      [
        "Ġ",
        "di"
      ],
      [
        "en",
        "cia"
      ],
      [
        "ar",
        "Ã¡"
      ],
      [
        "Ġp",
        "or"
      ],
      [
        "lo",
        "gÃŃa"
      ],
      [
        "Ã±",
        "a"
      ],
      [
        "Ġ3",
        "5"
      ],
      [
        "ĠR",
        "o"
      ],
      [
        "\"",
        ","
      ],
      [
        ")",
        ":"
      ],
      [
        "0",
        "0"
      ],
      [
        "B",
        "a"
      ],
      [
        "C",
        "Ã³"
      ],
      [
        "C",
        "uÃ¡"
      ],
      [
        "F",
        "i"
      ],
      [
        "F",
        "r"
      ],
      [
        "F",
        "ra"
      ],
      [
        "H",
        "o"
      ],
      [
        "I",
        "nÃ"
      ],
      [
        "K",
        "a"
      ],
      [
        "M",
        "a"
      ],
      [
        "M",
        "e"
      ],
      [
        "P",
        "s"
      ],
      [
        "S",
        "an"
      ],
      [
        "a",
        "t"
      ],
      [
        "a",
        "do"
      ],
      [
        "b",
        "o"
      ],
      [
        "b",
        "er"
      ],
      [
        "c",
        "on"
      ],
      [
        "c",
        "ar"
      ],
      [
        "c",
        "no"
      ],
      [
        "c",
        "Ã³"
      ],
      [
        "d",
        "a"
      ],
      [
        "d",
        "r"
      ],
      [
        "d",
        "Ã"
      ],
      [
        "d",
        "ue"
      ],
      [
        "d",
        "am"
      ],
      [
        "e",
        "t"
      ],
      [
        "e",
        "Ã±a"
      ],
      [
        "f",
        "i"
      ],
      [
        "f",
        "er"
      ],
      [
        "f",
        "ÃŃa"
      ],
      [
        "g",
        "ue"
      ],
      [
        "h",
        "on"
      ],
      [
        "i",
        "a"
      ],
      [
        "i",
        "o"
      ],
      [
        "i",
        "do"
      ],
      [
        "i",
        "ros"
      ],
      [
        "i",
        "ber"
      ],
      [
        "i",
        "da"
      ],
      [
        "i",
        "fi"
      ],
      [
        "j",
        "o"
      ],
      [
        "l",
        "u"
      ],
      [
        "l",
        "v"
      ],
      [
        "l",
        "es"
      ],
      [
        "l",
        "ig"
      ],
      [
        "m",
        "p"
      ],
      [
        "m",
        "on"
      ],
      [
        "m",
        "er"
      ],
      [
        "m",
        "Ã¡"
      ],
      [
        "m",
        "ien"
      ],
      [
        "m",
        "et"
      ],
      [
        "n",
        "u"
      ],
      [
        "n",
        "tica"
      ],
      [
        "n",
        "dam"
      ],
      [
        "o",
        "de"
      ],
      [
        "o",
        "ci"
      ],
      [
        "o",
        "logÃŃa"
      ],
      [
        "o",
        "lu"
      ],
      [
        "p",
        "ia"
      ],
      [
        "r",
        "n"
      ],
      [
        "r",
        "s"
      ],
      [
        "r",
        "es"
      ],
      [
        "r",
        "ido"
      ],
      [
        "s",
        "e"
      ],
      [
        "s",
        "ica"
      ],
      [
        "s",
        "is"
      ],
      [
        "s",
        "car"
      ],
      [
        "t",
        "u"
      ],
      [
        "t",
        "Ã¡"
      ],
      [
        "t",
        "re"
      ],
      [
        "t",
        "ra"
      ],
      [
        "t",
        "hon"
      ],
      [
        "t",
        "ifi"
      ],
      [
        "u",
        "la"
      ],
      [
        "v",
        "ida"
      ],
      [
        "v",
        "olu"
      ],
      [
        "x",
        "is"
      ],
      [
        "y",
        "thon"
      ],
      [
        "©",
        "s"
      ],
      [
        "º",
        "mer"
      ],
      [
        "¼",
        "eÃ±a"
      ],
      [
        "Ã",
        "ģ"
      ],
      [
        "Ã",
        "¼eÃ±a"
      ],
      [
        "Ġ",
        "\""
      ],
      [
        "Ġ",
        "#"
      ],
      [
        "Ġ",
        "/"
      ],
      [
        "Ġ",
        "9"
      ],
      [
        "Ġ",
        "ar"
      ],
      [
        "Ġ",
        "lo"
      ],
      [
        "Ġ",
        "te"
      ],
      [
        "Ġ",
        "mo"
      ],
      [
        "Ġ",
        "no"
      ],
      [
        "Ġ",
        "ra"
      ],
      [
        "Ġ",
        "in"
      ],
      [
        "Ġ",
        "nÃ"
      ],
      [
        "Ġ",
        "Â¿"
      ],
      [
        "Ġ",
        "Ba"
      ],
      [
        "Ġ",
        "Fr"
      ],
      [
        "Ġ",
        "InÃ"
      ],
      [
        "Ġ",
        "Ka"
      ],
      [
        "Ġ",
        "Me"
      ],
      [
        "Ġ",
        "San"
      ],
      [
        "Ġ",
        "due"
      ],
      [
        "Ġ",
        "mon"
      ],
      [
        "Ġ",
        "nu"
      ],
      [
        "Ġ",
        "res"
      ],
      [
        "Ġ",
        "vida"
      ],
      [
        "ĳ",
        "an"
      ],
      [
        "ĵ",
        "scar"
      ],
      [
        "ļ",
        "rs"
      ],
      [
        "en",
        "ta"
      ],
      [
        "en",
        "tar"
      ],
      [
        "on",
        "arÃ¡"
      ],
      [
        "de",
        "lo"
      ],
      [
        "la",
        "s"
      ],
      [
        "la",
        "mo"
      ],
      [
        "Ġc",
        "os"
      ],
      [
        "Ġc",
        "re"
      ],
      [
        "Ġc",
        "or"
      ],
      [
        "Ġc",
        "om"
      ],
      [
        "Ġc",
        "uÃ¡"
      ],
      [
        "ar",
        "a"
      ],
      [
        "ar",
        "o"
      ],
      [
        "ci",
        "s"
      ],
      [
        "ci",
        "onarÃ¡"
      ],
      [
        "es",
        "tar"
      ],
      [
        "es",
        "tra"
      ],
      [
        "Ġp",
        "er"
      ],
      [
        "Ġp",
        "ro"
      ],
      [
        "Ġp",
        "arÃ¡"
      ],
      [
        "Ġp",
        "ode"
      ],
      [
        "Ġp",
        "ara"
      ],
      [
        "er",
        "on"
      ],
      [
        "ÃŃ",
        "gue"
      ],
      [
        "ÃŃ",
        "sica"
      ],
      [
        "Ġde",
        "f"
      ],
      [
        "ien",
        "e"
      ],
      [
        "ien",
        "cia"
      ],
      [
        "ien",
        "so"
      ],
      [
        "ien",
        "estar"
      ],
      [
        "lo",
        "so"
      ],
      [
        "ue",
        "go"
      ],
      [
        "Ġs",
        "e"
      ],
      [
        "Ġs",
        "on"
      ],
      [
        "Ġs",
        "er"
      ],
      [
        "Ġs",
        "in"
      ],
      [
        "Ġs",
        "um"
      ],
      [
        "an",
        "o"
      ],
      [
        "an",
        "cis"
      ],
      [
        "ic",
        "ologÃŃa"
      ],
      [
        "ta",
        "d"
      ],
      [
        "ta",
        "do"
      ],
      [
        "ta",
        "Ã±a"
      ],
      [
        "te",
        "lig"
      ],
      [
        "te",
        "mÃ¡"
      ],
      [
        "Ġb",
        "rido"
      ],
      [
        "Ġb",
        "ienestar"
      ],
      [
        "Ġf",
        "ÃŃsica"
      ],
      [
        "Ġcon",
        "oci"
      ],
      [
        "Ġcon",
        "sis"
      ],
      [
        "cia",
        "l"
      ],
      [
        "di",
        "go"
      ],
      [
        "il",
        "de"
      ],
      [
        "il",
        "las"
      ],
      [
        "il",
        "iencia"
      ],
      [
        "Ã±",
        "os"
      ],
      [
        "Ã³",
        "n"
      ],
      [
        "Ġ1",
        "5"
      ],
      [
        "Ġ1",
        "00"
      ],
      [
        "ĠR",
        "am"
      ],
      [
        "Ġe",
        "l"
      ],
      [
        "Ġe",
        "mp"
      ],
      [
        "Ġe",
        "xis"
      ],
      [
        "Ġl",
        "iber"
      ],
      [
        "Ġl",
        "lamo"
      ],
      [
        "Ġl",
        "uego"
      ],
      [
        "ĠÃ",
        "ĳan"
      ],
      [
        "ĠÃ",
        "ĵscar"
      ],
      [
        "ĠÃ",
        "ļrs"
      ],
      [
        "Ġes",
        "tÃ¡"
      ],
      [
        "Ġfu",
        "i"
      ],
      [
        "Ġfu",
        "ndam"
      ],
      [
        "Ġfu",
        "eron"
      ],
      [
        "ig",
        "Ã¼eÃ±a"
      ],
      [
        "om",
        "entar"
      ],
      [
        "tica",
        "s"
      ],
      [
        "um",
        "ano"
      ],
      [
        "Ġ2",
        "5"
      ],
      [
        "Ġ2",
        "7"
      ],
      [
        "Ġ4",
        "2"
      ],
      [
        "ĠC",
        "igÃ¼eÃ±a"
      ],
      [
        "ĠC",
        "omentar"
      ],
      [
        "ĠP",
        "ython"
      ],
      [
        "ĠP",
        "ienso"
      ],
      [
        "Ġh",
        "a"
      ],
      [
        "Ġh",
        "umano"
      ],
      [
        "Ġt",
        "iene"
      ],
      [
        "Ġt",
        "ilde"
      ],
      [
        "Ġu",
        "n"
      ],
      [
        "Ġu",
        "no"
      ],
      [
        "Ġen",
        "tre"
      ],
      [
        "Ġre",
        "tu"
      ],
      [
        "Ġre",
        "volu"
      ],
      [
        "Ġdi",
        "fer"
      ],
      [
        "Ġdi",
        "jo"
      ],
      [
        "Ġpor",
        "que"
      ],
      [
        "Ġ35",
        "0"
      ],
      [
        "ĠRo",
        "que"
      ],
      [
        "ĠRo",
        "dr"
      ],
      [
        "CÃ³",
        "digo"
      ],
      [
        "CuÃ¡",
        "l"
      ],
      [
        "Fi",
        "loso"
      ],
      [
        "Fra",
        "se"
      ],
      [
        "Ho",
        "la"
      ],
      [
        "Ma",
        "temÃ¡"
      ],
      [
        "Ps",
        "icologÃŃa"
      ],
      [
        "at",
        "ÃŃa"
      ],
      [
        "cno",
        "logÃŃa"
      ],
      [
        "cÃ³",
        "mo"
      ],
      [
        "dÃ",
        "º"
      ],
      [
        "lv",
        "aro"
      ],
      [
        "mien",
        "to"
      ],
      [
        "met",
        "ros"
      ],
      [
        "tifi",
        "cial"
      ],
      [
        "ºmer",
        "o"
      ],
      [
        "Ãģ",
        "lvaro"
      ],
      [
        "Ġar",
        "tificial"
      ],
      [
        "Ġte",
        "cnologÃŃa"
      ],
      [
        "Ġmo",
        "delo"
      ],
      [
        "Ġra",
        "bo"
      ],
      [
        "Ġin",
        "telig"
      ],
      [
        "ĠnÃ",
        "ºmero"
      ],
      [
        "ĠBa",
        "con"
      ],
      [
        "ĠFr",
        "ancis"
      ],
      [
        "ĠInÃ",
        "©s"
      ],
      [
        "ĠKa",
        "iros"
      ],
      [
        "Ġdue",
        "Ã±os"
      ],
      [
        "Ġmon",
        "taÃ±a"
      ],
      [
        "Ġnu",
        "estra"
      ],
      [
        "Ġres",
        "iliencia"
      ],
      [
        "enta",
        "les"
      ],
      [
        "Ġcre",
        "ado"
      ],
      [
        "Ġcor",
        "tado"
      ],
      [
        "Ġcom",
        "illas"
      ],
      [
        "ĠcuÃ¡",
        "ntica"
      ],
      [
        "cionarÃ¡",
        "n"
      ],
      [
        "Ġper",
        "ro"
      ],
      [
        "Ġpro",
        "pia"
      ],
      [
        "ĠparÃ¡",
        "metros"
      ],
      [
        "Ġpode",
        "r"
      ],
      [
        "ÃŃgue",
        "z"
      ],
      [
        "Ġsum",
        "a"
      ],
      [
        "Ġconoci",
        "miento"
      ],
      [
        "Ġconsis",
        "te"
      ],
      [
        "ĠRam",
        "Ã³n"
      ],
      [
        "Ġemp",
        "atÃŃa"
      ],
      [
        "Ġexis",
        "to"
      ],
      [
        "Ġliber",
        "tad"
      ],
      [
        "ĠÃĳan",
        "dÃº"
      ],
      [
        "ĠÃļrs",
        "ula"
      ],
      [
        "ĠestÃ¡",
        "s"
      ],
      [
        "Ġfundam",
        "entales"
      ],
      [
        "ĠComentar",
        "io"
      ],
      [
        "Ġretu",
        "rn"
      ],
      [
        "Ġrevolu",
        "cionarÃ¡n"
      ],
      [
        "Ġdifer",
        "encia"
      ],
      [
        "ĠRodr",
        "ÃŃguez"
      ],
      [
        "Filoso",
        "fÃŃa"
      ],
      [
        "MatemÃ¡",
        "ticas"
      ],
      [
        "Ġintelig",
        "encia"
      ]
    ]
  }
}